/**
  ******************************************************************************
  * @file    weights/conv.cc
  * @author  Pierre-Emmanuel Novac <penovac@unice.fr>, LEAT, CNRS, Université Côte d'Azur, France
  * @version 1.0.0
  * @date    24 march 2020
  * @brief   Template generating plain C code for the implementation of Convolutional Neural Networks on MCU
  */

#define INPUT_CHANNELS    8
#define CONV_FILTERS      8
#define CONV_KERNEL_SIZE  5


const float conv1d_4_bias[CONV_FILTERS] = {0x1.5af3d60000000p-4, 0x1.8408c40000000p-1, -0x1.61e8720000000p-4, -0x1.37b19c0000000p-4, 0x1.b6f7500000000p-5, 0x1.51b8a60000000p-2, -0x1.4a7ffc0000000p-5, 0x1.be092c0000000p-2}
;

const float conv1d_4_kernel[CONV_FILTERS][INPUT_CHANNELS][CONV_KERNEL_SIZE] = {{{0x1.3ae5c00000000p-4, -0x1.041a5c0000000p-4, -0x1.984c240000000p-1, -0x1.90db500000000p-1, -0x1.36c53c0000000p-1}
, {0x1.006c4c0000000p-2, -0x1.8c39a00000000p-4, -0x1.baf6880000000p-3, -0x1.9d7f300000000p-1, -0x1.f769ac0000000p-2}
, {0x1.bfb7900000000p-5, -0x1.0df1580000000p-4, -0x1.4d25840000000p-5, 0x1.8f0bb40000000p-3, -0x1.5cb9a60000000p-3}
, {-0x1.aca1980000000p-2, 0x1.0200f20000000p-2, -0x1.d895420000000p-3, 0x1.bdf2b60000000p-1, -0x1.1d689a0000000p-2}
, {-0x1.27d2be0000000p-2, -0x1.6873b40000000p-4, -0x1.df1b620000000p-3, -0x1.244bc60000000p-4, -0x1.2a5c2a0000000p-5}
, {0x1.1111fc0000000p-4, -0x1.7f47b80000000p-2, -0x1.017bc40000000p-2, -0x1.48e3000000000p-3, 0x1.7db6600000000p-2}
, {-0x1.9ee1d40000000p-1, -0x1.6ad7060000000p-2, 0x1.8eb7000000000p-2, 0x1.d530c00000000p-2, 0x1.2e949a0000000p-2}
, {0x1.1db0ba0000000p-2, -0x1.c4d41c0000000p-4, 0x1.2e944a0000000p-5, 0x1.6272980000000p-1, -0x1.0f3fde0000000p-2}
}
, {{0x1.9ad99c0000000p-2, -0x1.8127dc0000000p-1, -0x1.33c8720000000p+0, 0x1.99a46e0000000p-3, -0x1.2013dc0000000p-1}
, {-0x1.99a7be0000000p-2, -0x1.07b1cc0000000p+0, -0x1.520fba0000000p-1, -0x1.0e67980000000p-2, -0x1.8a8f120000000p-3}
, {-0x1.29d41e0000000p-1, 0x1.6d14d80000000p-3, -0x1.3b2d500000000p-1, -0x1.df00900000000p-2, 0x1.9e87e40000000p-1}
, {-0x1.9b7e3a0000000p-2, 0x1.7460100000000p-3, 0x1.92cec80000000p-2, -0x1.e89bce0000000p-7, -0x1.f778920000000p-5}
, {-0x1.085d5a0000000p-3, 0x1.2fc9d60000000p-2, -0x1.2262340000000p-2, -0x1.bda9620000000p-4, 0x1.a4f8ee0000000p-2}
, {-0x1.004b660000000p-3, 0x1.705c5a0000000p-1, -0x1.56b2dc0000000p-1, -0x1.ad53e00000000p-4, 0x1.d7f71a0000000p-2}
, {-0x1.20456a0000000p-1, -0x1.a0c52e0000000p-4, -0x1.2acf7c0000000p-1, -0x1.9d5c0c0000000p-2, -0x1.328d600000000p-2}
, {-0x1.9477e00000000p-2, 0x1.61de900000000p-3, -0x1.0dbf5c0000000p-1, 0x1.312a2c0000000p-2, 0x1.b9b4640000000p-2}
}
, {{0x1.32b7280000000p-3, 0x1.4361320000000p-4, 0x1.95ef640000000p-3, 0x1.bc46680000000p-4, -0x1.18a8500000000p-1}
, {0x1.8082200000000p-5, -0x1.27c1180000000p-5, -0x1.f84de00000000p-2, -0x1.5bf9540000000p-2, 0x1.d212320000000p-3}
, {0x1.196b1c0000000p-3, -0x1.c4fec40000000p-4, -0x1.a8cd8c0000000p-2, -0x1.3108ce0000000p-3, 0x1.d06d7c0000000p-5}
, {0x1.25fdca0000000p-2, -0x1.03272c0000000p-4, -0x1.526cd20000000p-1, 0x1.668b8a0000000p-4, -0x1.dedff80000000p-3}
, {0x1.10f8520000000p-5, 0x1.0d32660000000p-4, 0x1.4273e80000000p-2, 0x1.5cfd240000000p-2, 0x1.c587fc0000000p-4}
, {-0x1.957b140000000p-3, -0x1.3392100000000p-2, -0x1.73e10a0000000p-2, -0x1.b3eafa0000000p-3, -0x1.014cb20000000p-6}
, {0x1.4c80c00000000p-2, 0x1.8f56500000000p-2, 0x1.468a9e0000000p-1, 0x1.914c5a0000000p-2, -0x1.2e32f60000000p-3}
, {-0x1.6d75fe0000000p-2, 0x1.7f3a6a0000000p-3, -0x1.f4f5740000000p-1, 0x1.d7513e0000000p-3, 0x1.6a75e60000000p-2}
}
, {{-0x1.7be0e20000000p-2, -0x1.0da2e80000000p-1, -0x1.6d0ea80000000p-1, -0x1.6895780000000p-1, -0x1.0e94ae0000000p-2}
, {0x1.3fc00e0000000p-2, -0x1.4e16e00000000p-1, -0x1.04d5140000000p-2, 0x1.efdb840000000p-3, 0x1.46ece20000000p-4}
, {-0x1.25ae020000000p-2, 0x1.1850f80000000p-3, 0x1.74473c0000000p-2, 0x1.a986040000000p-3, 0x1.3b228a0000000p-8}
, {-0x1.c241e40000000p-4, 0x1.b2a2440000000p-2, 0x1.1f8a020000000p-3, 0x1.c073260000000p-2, 0x1.e8f3060000000p-5}
, {-0x1.a773460000000p-2, -0x1.d2306e0000000p-5, -0x1.76598a0000000p-5, 0x1.135bd20000000p-5, -0x1.7d4df20000000p-4}
, {0x1.9645000000000p-3, -0x1.1643900000000p-5, 0x1.5608240000000p-3, 0x1.1fe0860000000p-3, -0x1.848f780000000p-4}
, {-0x1.72e2f80000000p-3, -0x1.d9be360000000p-5, 0x1.6b81220000000p-3, 0x1.d1d2c20000000p-3, -0x1.93af2e0000000p-4}
, {0x1.516b340000000p-1, -0x1.5cd7b40000000p-3, 0x1.5a66800000000p-4, -0x1.7705c40000000p-4, -0x1.8393480000000p-2}
}
, {{0x1.7af1880000000p-3, -0x1.a3b2ee0000000p-3, -0x1.67a3b40000000p-2, 0x1.31f9e20000000p-2, -0x1.74e4720000000p-5}
, {-0x1.98e42a0000000p-4, 0x1.85df660000000p-3, 0x1.43f6580000000p-2, 0x1.5ba5300000000p-2, 0x1.02c1c00000000p-4}
, {-0x1.ce31d80000000p-2, -0x1.8a3fe60000000p-4, 0x1.65cd480000000p-5, -0x1.3b76420000000p-4, 0x1.b1d54c0000000p-3}
, {0x1.d255ea0000000p-4, -0x1.1930420000000p-2, -0x1.6748420000000p-4, -0x1.0059ec0000000p-2, -0x1.a35bb60000000p-5}
, {-0x1.7a99f60000000p-5, 0x1.6e8afc0000000p-4, 0x1.ba62620000000p-5, -0x1.063c9a0000000p-3, -0x1.369ad20000000p-4}
, {-0x1.2796ca0000000p-3, -0x1.ca42620000000p-10, 0x1.09f3700000000p-4, 0x1.72f2040000000p-6, -0x1.ac4af60000000p-2}
, {-0x1.5c86ea0000000p-2, 0x1.4392240000000p-1, 0x1.d504660000000p-3, -0x1.6978980000000p-2, -0x1.d5090c0000000p-1}
, {0x1.e17b900000000p-5, -0x1.e310380000000p-3, -0x1.7662ce0000000p-5, -0x1.216c160000000p-1, -0x1.b265980000000p-5}
}
, {{-0x1.c2a1f20000000p-6, -0x1.ecf8f80000000p-3, -0x1.0b91480000000p+0, -0x1.59e4940000000p-3, -0x1.3696bc0000000p-1}
, {0x1.6a87820000000p-3, 0x1.6c3bb80000000p-4, -0x1.931f9e0000000p-3, -0x1.61a0d60000000p-4, 0x1.88de6c0000000p-4}
, {0x1.3fff220000000p-2, 0x1.408e2c0000000p-2, -0x1.10f8ca0000000p-1, 0x1.404e460000000p-3, 0x1.02bdde0000000p-3}
, {-0x1.aa7c940000000p-2, -0x1.094eb40000000p-2, 0x1.e08cec0000000p-4, -0x1.e5969e0000000p-2, -0x1.22f1e80000000p-7}
, {0x1.86c43c0000000p-2, 0x1.0d1d400000000p-2, -0x1.bab97c0000000p-1, -0x1.12ea340000000p+0, -0x1.4ff2360000000p-1}
, {0x1.62c9f40000000p-2, 0x1.69e1060000000p-3, -0x1.4a5c8a0000000p-1, 0x1.a23a420000000p-2, 0x1.e21eaa0000000p-4}
, {0x1.4475780000000p-4, -0x1.3821e60000000p-2, -0x1.027f1e0000000p+0, -0x1.3fc2ce0000000p+0, -0x1.1399c80000000p+0}
, {-0x1.8f22ce0000000p-4, 0x1.cff4e60000000p-3, 0x1.b3af180000000p-6, -0x1.fa72b20000000p-3, 0x1.0514600000000p-1}
}
, {{-0x1.35ef580000000p-4, -0x1.2516a00000000p-3, -0x1.3ee6860000000p-2, -0x1.7fc54c0000000p-5, -0x1.24f33c0000000p-2}
, {0x1.86ce680000000p-4, -0x1.7f1da00000000p-3, -0x1.161f940000000p-4, -0x1.1f2a3e0000000p-2, -0x1.7ba9820000000p-3}
, {0x1.7818f20000000p-3, 0x1.2337ca0000000p-6, 0x1.bdf84a0000000p-3, 0x1.65d2760000000p-3, -0x1.e585700000000p-6}
, {0x1.c335560000000p-1, 0x1.03e5cc0000000p-2, 0x1.56fa340000000p-6, 0x1.b04c4a0000000p-3, -0x1.bb69940000000p-4}
, {-0x1.db94b00000000p-2, -0x1.2592f20000000p-3, -0x1.b52ca00000000p-5, -0x1.bf671c0000000p-6, 0x1.057ddc0000000p-3}
, {0x1.0438b20000000p-2, 0x1.a660f80000000p-3, 0x1.6966c60000000p-2, -0x1.10529e0000000p-11, 0x1.df1ada0000000p-3}
, {-0x1.7e6bf20000000p-4, -0x1.75a9440000000p-4, -0x1.0f7fae0000000p-1, -0x1.ef340a0000000p-6, -0x1.c34efa0000000p-2}
, {0x1.5fe4ca0000000p-1, 0x1.847b800000000p-2, 0x1.9082820000000p-2, 0x1.cd3a740000000p-2, 0x1.93cf560000000p-3}
}
, {{0x1.5f4a3c0000000p-3, -0x1.c400480000000p-4, 0x1.5a5bb80000000p-1, 0x1.1d8ed80000000p-1, -0x1.3058d00000000p-3}
, {-0x1.b96b300000000p-1, -0x1.61f7980000000p-2, 0x1.c8c9a80000000p-4, -0x1.07457e0000000p-3, 0x1.4ce0dc0000000p-1}
, {-0x1.9ea4e60000000p-1, -0x1.52776a0000000p-1, -0x1.1fa2f80000000p-3, -0x1.5b7dee0000000p-2, -0x1.0fa8dc0000000p-7}
, {-0x1.52dac60000000p+0, 0x1.8bc0c40000000p-2, 0x1.9fc05c0000000p-2, -0x1.4739740000000p-2, 0x1.9176020000000p-4}
, {0x1.4a6eca0000000p-2, -0x1.d6f0ce0000000p-4, -0x1.7a86820000000p-2, 0x1.63e6b00000000p-2, -0x1.45e0c60000000p-7}
, {-0x1.e3cb6e0000000p-2, -0x1.85b0900000000p-3, -0x1.1560200000000p-4, -0x1.51ace00000000p-5, 0x1.6c1db00000000p-3}
, {0x1.d5c5b80000000p-2, -0x1.81afaa0000000p-1, 0x1.83771e0000000p-4, 0x1.9e49680000000p-2, -0x1.a33bce0000000p-2}
, {-0x1.12b9100000000p+0, -0x1.50d0a60000000p-1, 0x1.a94e920000000p-6, -0x1.2000580000000p-3, 0x1.337be20000000p-2}
}
}
;

#undef INPUT_CHANNELS
#undef CONV_FILTERS
#undef CONV_KERNEL_SIZE