/**
  ******************************************************************************
  * @file    weights/fc.cc
  * @author  Pierre-Emmanuel Novac <penovac@unice.fr>, LEAT, CNRS, Université Côte d'Azur, France
  * @version 1.0.0
  * @date    24 march 2020
  * @brief   Template generating plain C code for the implementation of Convolutional Neural Networks on MCU
  */

#define INPUT_SAMPLES 184
#define FC_UNITS 6


const float dense_1_bias[FC_UNITS] = {0x1.549e0c0000000p-3, -0x1.1a900a0000000p-3, -0x1.92a2700000000p-2, 0x1.518eca0000000p-3, 0x1.07c2600000000p-7, 0x1.4e0bd00000000p-2}
;

const float dense_1_kernel[FC_UNITS][INPUT_SAMPLES] = {{-0x1.5483c00000000p-1, -0x1.8619440000000p-2, 0x1.c475a20000000p-2, -0x1.80c2fc0000000p-3, -0x1.7f1f4a0000000p-4, -0x1.6097640000000p-3, -0x1.0bb4e20000000p-2, -0x1.1e3b3e0000000p-2, 0x1.a5c5b40000000p-3, 0x1.00bbaa0000000p-5, 0x1.35a66e0000000p-3, -0x1.4967a60000000p-5, 0x1.d48bb80000000p-2, 0x1.66ca320000000p-3, -0x1.8340760000000p-6, -0x1.aa82720000000p-5, 0x1.13aec00000000p-2, 0x1.fcfa700000000p-3, 0x1.51314a0000000p-3, 0x1.afbc8e0000000p-5, -0x1.6757040000000p-2, 0x1.1180c40000000p-6, -0x1.2623f40000000p-5, -0x1.7a90b20000000p-1, -0x1.5f85260000000p-1, -0x1.ddc2500000000p-5, -0x1.5f264c0000000p-5, -0x1.28d4e80000000p-7, -0x1.2ba7820000000p-3, -0x1.b87fca0000000p-2, -0x1.36ce980000000p-2, -0x1.4898ee0000000p-1, -0x1.b920b20000000p-2, -0x1.6865060000000p-4, -0x1.ae7fb40000000p-6, 0x1.0b6c9a0000000p-4, -0x1.cd22740000000p-3, -0x1.3b23680000000p-5, 0x1.0484420000000p-2, -0x1.688f7a0000000p-1, 0x1.30324c0000000p-2, -0x1.64d5ba0000000p-6, 0x1.e954f20000000p-3, 0x1.14e9700000000p-3, -0x1.fdffc00000000p-5, -0x1.04300c0000000p-3, 0x1.18b9f00000000p-6, -0x1.9453e20000000p-4, -0x1.d85e800000000p-2, -0x1.cd85340000000p-2, -0x1.a6be540000000p-3, -0x1.4282f40000000p-3, -0x1.b6645e0000000p-4, -0x1.4b6d8a0000000p-2, 0x1.20e1f60000000p-7, 0x1.5d48380000000p-2, 0x1.cdfb8e0000000p-2, -0x1.75cf000000000p-4, 0x1.ec47f40000000p-6, 0x1.4a7fc80000000p-3, 0x1.69f2420000000p-5, -0x1.898e820000000p-3, 0x1.55e63a0000000p-4, -0x1.114cc20000000p-3, -0x1.5462240000000p-3, -0x1.19dde20000000p-2, -0x1.8b948e0000000p-4, 0x1.f6a1a80000000p-4, 0x1.4dcbb60000000p-3, -0x1.6a71220000000p-1, -0x1.94198e0000000p-1, 0x1.915f560000000p-5, 0x1.b31f580000000p-4, 0x1.4c73b40000000p-3, -0x1.0de3700000000p-3, -0x1.1b9ef40000000p-4, 0x1.7959880000000p-5, -0x1.35cd860000000p-3, -0x1.b81a5c0000000p-4, 0x1.0160e60000000p-2, 0x1.c5b7540000000p-4, -0x1.5dadcc0000000p-2, -0x1.3e0b2c0000000p-3, -0x1.5417680000000p-2, -0x1.04d07e0000000p-3, 0x1.518df80000000p-4, -0x1.8442080000000p-3, -0x1.5e3c620000000p-3, -0x1.511e480000000p-2, -0x1.a9f2220000000p-3, -0x1.5a3e5e0000000p-2, 0x1.7bb83e0000000p-4, -0x1.9c76de0000000p-1, -0x1.1802700000000p+0, -0x1.442fd40000000p-2, -0x1.239e520000000p-1, -0x1.1a3d060000000p-1, 0x1.7cbbb40000000p-4, 0x1.4ffa660000000p-5, 0x1.370a1c0000000p-3, -0x1.6c2cb80000000p-4, -0x1.6a1e0e0000000p-3, 0x1.31ef880000000p-3, -0x1.e180b40000000p-5, -0x1.906f240000000p-7, 0x1.a177920000000p-4, -0x1.03e07e0000000p+0, -0x1.d138320000000p-1, -0x1.f709860000000p-3, 0x1.7504b40000000p-4, -0x1.0133960000000p-5, -0x1.0d1ed20000000p-2, -0x1.2fe7200000000p-4, -0x1.acff600000000p-3, -0x1.58b2fa0000000p-2, -0x1.ef02e00000000p-1, -0x1.06bd460000000p-1, -0x1.91137c0000000p-3, -0x1.3d50a80000000p-2, 0x1.ba8d3a0000000p-5, -0x1.ade4960000000p-4, -0x1.cf1e740000000p-2, -0x1.14707e0000000p-3, 0x1.53976e0000000p-3, 0x1.f4e5940000000p-3, -0x1.8944d60000000p-7, -0x1.da75ce0000000p-5, 0x1.32f3100000000p-7, 0x1.3a65d80000000p-3, 0x1.4130c60000000p-3, 0x1.2bab4e0000000p-2, 0x1.1ab0160000000p-3, 0x1.46cdc00000000p-2, 0x1.e679240000000p-3, 0x1.47459a0000000p-4, -0x1.38fe440000000p-2, -0x1.3dc9b80000000p-4, -0x1.dbf9e00000000p-2, -0x1.0ac7c00000000p-1, -0x1.b2ac500000000p-3, 0x1.6dfef40000000p-4, -0x1.6f8a920000000p-3, -0x1.3d1bba0000000p-2, 0x1.37c3860000000p-6, 0x1.725e500000000p-2, 0x1.87f5420000000p-4, 0x1.836e220000000p-3, 0x1.cc4d2e0000000p-6, 0x1.bdc4480000000p-2, 0x1.4ecc020000000p-2, 0x1.27a2bc0000000p-3, 0x1.79dcac0000000p-4, 0x1.35e8860000000p-2, 0x1.0052da0000000p-2, -0x1.f0b95c0000000p-3, 0x1.c1ad920000000p-4, 0x1.68bf320000000p-5, 0x1.c6caf00000000p-4, 0x1.01fdb00000000p-4, 0x1.41c0200000000p-3, -0x1.44532c0000000p-5, -0x1.53a61c0000000p-2, -0x1.1dbd5e0000000p-1, -0x1.bc07580000000p-1, 0x1.f62a320000000p-3, 0x1.4c39340000000p-1, 0x1.c97dc60000000p-2, 0x1.025dae0000000p-6, -0x1.9703a20000000p-3, 0x1.3fa7680000000p-2, -0x1.6846660000000p-5, -0x1.6532e40000000p-4, 0x1.b2cb7c0000000p-2, -0x1.6c7cc00000000p-2, 0x1.bc210c0000000p-4, -0x1.fa172c0000000p-5, 0x1.e3bbf80000000p-3, -0x1.00927c0000000p-2, 0x1.ad2e9c0000000p-8, 0x1.1ea1200000000p-2, 0x1.2693a80000000p-3, -0x1.1008760000000p-9, -0x1.8a9f720000000p-3, 0x1.c756120000000p-6}
, {-0x1.25efa80000000p-2, -0x1.d2bc320000000p-3, 0x1.d250b80000000p-3, 0x1.6619580000000p-3, 0x1.7198d40000000p-6, -0x1.28a5640000000p-4, 0x1.8dfb040000000p-3, 0x1.346bb60000000p-2, 0x1.3bcec00000000p-3, 0x1.9e3dae0000000p-4, 0x1.374b220000000p-9, -0x1.ff5da00000000p-5, -0x1.3628960000000p-4, 0x1.f633120000000p-4, 0x1.31d8d20000000p-3, 0x1.a5911c0000000p-3, 0x1.31a2800000000p-5, -0x1.c8bc1c0000000p-5, -0x1.34c45e0000000p-3, -0x1.442bb60000000p-4, -0x1.73911c0000000p-3, -0x1.1910600000000p-2, -0x1.0276a20000000p-1, 0x1.9285ac0000000p-3, 0x1.1f59720000000p-1, 0x1.729cb60000000p-2, -0x1.18c41c0000000p-4, 0x1.7b48de0000000p-3, 0x1.ef13f80000000p-5, 0x1.abfdde0000000p-6, -0x1.0f29d80000000p-3, -0x1.b927440000000p-3, -0x1.8465300000000p-2, -0x1.fa20900000000p-5, -0x1.3b10a60000000p-3, -0x1.0fcecc0000000p-4, 0x1.c21e460000000p-6, 0x1.1296c40000000p-1, -0x1.213a140000000p-6, 0x1.07d5d00000000p-3, -0x1.44d2460000000p-1, 0x1.9b15480000000p-2, 0x1.5ea5e40000000p-2, 0x1.96a02e0000000p-3, 0x1.19c0080000000p-2, 0x1.1afda00000000p-1, -0x1.2206100000000p-1, -0x1.6d6b7c0000000p-1, -0x1.6758800000000p-2, -0x1.217c8a0000000p-3, -0x1.e888040000000p-4, -0x1.50ed840000000p-6, -0x1.19271a0000000p-6, -0x1.aec8060000000p-4, -0x1.bee9b80000000p-3, -0x1.305d260000000p-2, -0x1.dea46a0000000p-2, -0x1.057a760000000p-2, -0x1.a1e61c0000000p-3, 0x1.2b69da0000000p-4, 0x1.cf86480000000p-6, -0x1.458b000000000p-6, -0x1.4ccdb00000000p-3, 0x1.184d1e0000000p-8, -0x1.f854640000000p-5, -0x1.7173ea0000000p-3, -0x1.d955180000000p-3, -0x1.0665320000000p-2, -0x1.05b0400000000p-3, -0x1.e3079c0000000p-2, -0x1.d172f20000000p-3, -0x1.039f700000000p-4, -0x1.01a55c0000000p-7, -0x1.874e8e0000000p-5, 0x1.33eae00000000p-4, 0x1.45860a0000000p-4, 0x1.e2c6c80000000p-4, 0x1.2f8d140000000p-6, 0x1.f02c460000000p-2, -0x1.883f5e0000000p-7, 0x1.21e46e0000000p-3, 0x1.94be120000000p-3, 0x1.76851c0000000p-3, 0x1.033d040000000p-6, 0x1.6193460000000p-3, -0x1.09c4a60000000p-4, -0x1.64a5fa0000000p-2, -0x1.3817040000000p-3, 0x1.3c54420000000p-8, -0x1.4f05200000000p-7, -0x1.9e843e0000000p-4, 0x1.051ad00000000p-3, -0x1.e935120000000p-2, -0x1.f333020000000p-1, -0x1.f0cb100000000p-2, -0x1.a164240000000p-4, 0x1.459bc40000000p-2, 0x1.c9f4900000000p-4, 0x1.5a34120000000p-5, -0x1.df98c80000000p-6, -0x1.ed6a220000000p-3, -0x1.163b720000000p-3, -0x1.e763dc0000000p-3, -0x1.25c3820000000p-1, -0x1.22adae0000000p-4, 0x1.ced9340000000p-3, 0x1.2af1a40000000p-2, -0x1.2136a40000000p+0, -0x1.7cd2580000000p-1, 0x1.ea19b80000000p-5, -0x1.e23e3a0000000p-5, -0x1.82131e0000000p-3, 0x1.29995c0000000p-2, 0x1.3c88a20000000p-6, -0x1.42713e0000000p-4, 0x1.7060dc0000000p-3, 0x1.b3a79c0000000p-2, 0x1.2b5ae40000000p-2, 0x1.e801020000000p-2, 0x1.e6d5020000000p-3, 0x1.9be5640000000p-4, 0x1.0434f00000000p-2, -0x1.a857f00000000p-3, -0x1.b0d4a20000000p-3, -0x1.14ab380000000p-4, 0x1.48683c0000000p-3, -0x1.22dc160000000p-4, 0x1.53bea40000000p-4, -0x1.3787be0000000p-3, -0x1.ad37c40000000p-8, -0x1.fb25280000000p-2, -0x1.2e794c0000000p-4, -0x1.963f960000000p-3, 0x1.a35ea40000000p-6, -0x1.5fb5a60000000p-3, -0x1.07b41a0000000p-4, -0x1.d5f6900000000p-4, 0x1.abc2d00000000p-7, 0x1.fa01840000000p-3, 0x1.67e3e00000000p-3, -0x1.05ab900000000p-2, 0x1.90086e0000000p-2, 0x1.00cb7a0000000p-2, 0x1.696c4a0000000p-5, 0x1.21c0a00000000p-5, -0x1.f6ee360000000p-4, 0x1.1118b40000000p-3, -0x1.4ab4920000000p-4, 0x1.9de51e0000000p-5, -0x1.3918f20000000p-4, -0x1.c264860000000p-3, -0x1.dd9be20000000p-6, -0x1.766ad20000000p-2, -0x1.0f9d060000000p-2, -0x1.02afba0000000p-2, 0x1.08227c0000000p-3, -0x1.0802f80000000p-4, 0x1.b32d0c0000000p-3, 0x1.0e7e660000000p-5, -0x1.8ee5d20000000p-6, 0x1.f6e3040000000p-3, -0x1.3933060000000p-3, 0x1.1159060000000p-6, 0x1.7b46d80000000p-3, 0x1.f0d77e0000000p-2, 0x1.bea2be0000000p-6, 0x1.bdf4d20000000p-5, 0x1.3bbcf20000000p-5, 0x1.2318140000000p-5, 0x1.6155120000000p-5, 0x1.07500a0000000p-2, 0x1.b462980000000p-3, 0x1.2e48020000000p-4, 0x1.efe25a0000000p-3, -0x1.fd804e0000000p-3, -0x1.1c865c0000000p-7, -0x1.82a7ba0000000p-3, -0x1.524bbe0000000p-7, 0x1.13e34e0000000p-2, -0x1.fb1e880000000p-3, -0x1.044dd20000000p-2, -0x1.dd44ea0000000p-5, -0x1.36357e0000000p-2, 0x1.6ac57e0000000p-3}
, {0x1.7368a40000000p-1, 0x1.ca05800000000p-2, -0x1.b1221a0000000p-3, 0x1.4d115a0000000p-3, 0x1.f6a5820000000p-2, 0x1.f08f7c0000000p-3, 0x1.8cc93c0000000p-3, -0x1.103a160000000p-5, -0x1.10b4fa0000000p-4, -0x1.94f0c00000000p-4, 0x1.48fff00000000p-5, 0x1.fe93820000000p-4, 0x1.3c78280000000p-3, 0x1.21398a0000000p-3, 0x1.7d6fb00000000p-6, -0x1.ddc1c80000000p-6, -0x1.6d92000000000p-3, 0x1.8e53600000000p-5, 0x1.76dae60000000p-3, -0x1.3658800000000p-7, 0x1.3016860000000p-3, 0x1.98e4080000000p-6, -0x1.9e67c00000000p-6, 0x1.14004e0000000p-4, -0x1.132b580000000p-1, -0x1.74d78e0000000p-7, 0x1.252fc40000000p-2, 0x1.d1417c0000000p-7, 0x1.ab1f1a0000000p-3, 0x1.6755080000000p-2, 0x1.cbce0e0000000p-3, 0x1.7e425e0000000p-1, 0x1.7159d60000000p-1, 0x1.9ec3300000000p-3, -0x1.9134d60000000p-4, 0x1.67ce5a0000000p-5, -0x1.28217e0000000p-3, -0x1.bca5f80000000p-2, -0x1.d3a23c0000000p-2, -0x1.f6bb6c0000000p-2, 0x1.78c8000000000p-2, -0x1.2888440000000p-1, -0x1.4241fe0000000p-2, -0x1.5fb6180000000p-2, -0x1.a978700000000p-5, -0x1.3199000000000p-1, -0x1.274d7c0000000p-1, -0x1.837b5e0000000p-2, 0x1.60e88a0000000p-2, 0x1.a042460000000p-4, 0x1.905f0a0000000p-3, 0x1.b1c7940000000p-3, 0x1.bde37c0000000p-4, 0x1.731f0e0000000p-5, 0x1.906a500000000p-3, 0x1.a1afd40000000p-7, -0x1.2e20a00000000p-2, 0x1.453e420000000p-4, 0x1.979fa80000000p-3, -0x1.8fbd6c0000000p-2, -0x1.0608d80000000p-3, -0x1.14719e0000000p-4, -0x1.3231ea0000000p-3, -0x1.2fe66e0000000p-3, -0x1.272e740000000p-2, -0x1.65bc0a0000000p-3, -0x1.6c4bca0000000p-1, -0x1.c71bf80000000p-1, -0x1.ecd9fe0000000p-1, -0x1.db446a0000000p-1, -0x1.708b7e0000000p-1, -0x1.d7e8a40000000p-2, -0x1.646cb20000000p-3, 0x1.5b0a780000000p-3, 0x1.69ff280000000p-3, 0x1.5f155c0000000p-2, 0x1.dda8f40000000p-3, 0x1.5305da0000000p-3, -0x1.bbf55a0000000p-3, -0x1.681bc60000000p-3, -0x1.2bb53c0000000p-2, -0x1.460b0c0000000p-2, -0x1.1263120000000p-1, -0x1.7332c00000000p-3, -0x1.e240480000000p-3, -0x1.52a2920000000p-3, -0x1.c28db40000000p-6, -0x1.7e098c0000000p-2, -0x1.373e140000000p-1, -0x1.2a6d180000000p-1, -0x1.0c60060000000p-1, -0x1.f2448c0000000p-1, 0x1.6c21940000000p-4, -0x1.df20760000000p-3, -0x1.67c9cc0000000p-1, -0x1.2ccc780000000p-3, 0x1.193ca00000000p-2, 0x1.8baa220000000p-5, -0x1.30bf620000000p-5, -0x1.4d8d620000000p-2, -0x1.6b40c60000000p-4, -0x1.2ce4120000000p-2, 0x1.4dabf20000000p-4, -0x1.39ea020000000p-5, -0x1.4982f20000000p-4, -0x1.5c855c0000000p-5, -0x1.2296760000000p-2, -0x1.b116180000000p-1, -0x1.3ab57e0000000p-2, 0x1.b286140000000p-4, -0x1.4426460000000p-1, -0x1.2604540000000p-1, -0x1.32e2120000000p-2, -0x1.5c98dc0000000p-4, -0x1.ac67280000000p-2, 0x1.d5639c0000000p-2, 0x1.34a0260000000p-2, 0x1.3249ee0000000p-3, -0x1.061b720000000p-5, -0x1.c45ef60000000p-5, 0x1.b58c920000000p-5, 0x1.9eb0b80000000p-3, -0x1.37bf1e0000000p-5, -0x1.2366220000000p-6, -0x1.05c6b20000000p-2, -0x1.16bfb40000000p-4, 0x1.4601b80000000p-5, -0x1.9bc0a00000000p-4, 0x1.357ace0000000p-3, 0x1.2fa2380000000p-6, -0x1.e0967a0000000p-8, 0x1.03bdcc0000000p-3, -0x1.d2b2e20000000p-3, -0x1.04a24c0000000p-3, -0x1.42f81a0000000p-3, -0x1.1aa30a0000000p-3, 0x1.0ef20c0000000p-2, 0x1.ba7f9c0000000p-4, 0x1.f53e020000000p-2, 0x1.8cb56c0000000p-2, 0x1.f6e7720000000p-3, -0x1.a4ec740000000p-10, 0x1.519e620000000p-2, -0x1.84f5f40000000p-4, -0x1.6e295c0000000p-2, -0x1.20b49a0000000p-7, -0x1.4f2ca80000000p-3, -0x1.3d69080000000p-5, 0x1.8d4d8a0000000p-4, -0x1.e1832c0000000p-7, 0x1.1df3520000000p-2, 0x1.38c1320000000p-3, 0x1.7f713a0000000p-3, 0x1.62aa160000000p-6, 0x1.aa5ccc0000000p-3, 0x1.3dfb300000000p-2, 0x1.e7949c0000000p-5, 0x1.1557c20000000p-3, 0x1.31d4e00000000p-4, -0x1.03ee680000000p-7, -0x1.203b680000000p-3, 0x1.c270f20000000p-2, 0x1.3cdf920000000p-1, 0x1.c6d3f60000000p-3, -0x1.abec280000000p-2, -0x1.092aca0000000p-1, -0x1.78ad520000000p-2, -0x1.30ee320000000p-2, 0x1.5f2fe00000000p-5, -0x1.38cf9a0000000p-3, 0x1.4880be0000000p-7, 0x1.1f75480000000p-4, 0x1.095bc80000000p-8, -0x1.0abcea0000000p-3, 0x1.4073400000000p-10, -0x1.05638c0000000p-8, -0x1.1d61ac0000000p-3, 0x1.14a07a0000000p-2, -0x1.d6ad280000000p-3, -0x1.1f63da0000000p-5, -0x1.8fb91c0000000p-8, -0x1.33d1520000000p-3, 0x1.b39b940000000p-4, 0x1.a46e3a0000000p-4}
, {-0x1.ec524e0000000p-1, -0x1.2d2b760000000p-1, -0x1.7406960000000p-1, -0x1.d84d160000000p-2, -0x1.8d0e780000000p-1, -0x1.5fbbbe0000000p-5, -0x1.bddc500000000p-2, -0x1.44cc7e0000000p-2, -0x1.6342400000000p-7, 0x1.556f060000000p-2, -0x1.9245e00000000p-2, -0x1.c8ac000000000p-2, -0x1.d968220000000p-5, -0x1.467ce40000000p-3, -0x1.396bd00000000p-5, -0x1.2391b20000000p-4, 0x1.4516740000000p-3, 0x1.1723a80000000p-3, -0x1.8e35920000000p-5, 0x1.36edfe0000000p-5, 0x1.556d520000000p-2, 0x1.f8445e0000000p-2, 0x1.c1f3660000000p-1, -0x1.1036ee0000000p-3, 0x1.6b76f00000000p-3, -0x1.5c54160000000p-1, -0x1.40b65e0000000p-2, 0x1.574ba60000000p-1, -0x1.2e1a940000000p-6, -0x1.9862e80000000p-4, -0x1.8599200000000p-2, 0x1.99c05c0000000p-2, -0x1.83443c0000000p-2, 0x1.43401e0000000p-2, 0x1.b74a260000000p-5, -0x1.9aef140000000p-5, -0x1.b478a60000000p-3, -0x1.876fc00000000p-3, -0x1.38fa460000000p-1, -0x1.8378a20000000p-1, -0x1.544a6e0000000p-1, 0x1.a3517c0000000p-5, -0x1.6c186c0000000p-3, -0x1.67933a0000000p-3, 0x1.bd607e0000000p-6, 0x1.35e6440000000p-3, 0x1.16f47a0000000p-1, 0x1.f6cd0a0000000p-3, -0x1.cfc7d40000000p-6, -0x1.0b765e0000000p-4, -0x1.5a56140000000p-3, -0x1.964edc0000000p-4, -0x1.2087b00000000p-1, -0x1.3b958c0000000p+0, -0x1.3f76640000000p-1, 0x1.441b040000000p-4, 0x1.5cad520000000p-1, 0x1.e058720000000p-1, 0x1.1473760000000p-1, -0x1.0102160000000p-1, 0x1.f8e17a0000000p-6, -0x1.b736e00000000p-5, 0x1.3e7f0a0000000p-3, 0x1.3e25c60000000p-4, 0x1.c179ee0000000p-3, -0x1.d9ebb00000000p-3, -0x1.d314160000000p-2, -0x1.4367780000000p-1, -0x1.0b89aa0000000p-1, -0x1.8407bc0000000p-4, 0x1.23d6b80000000p-5, -0x1.0491ca0000000p-2, -0x1.7410ca0000000p-2, -0x1.7a549a0000000p-2, -0x1.03e1d60000000p-2, -0x1.610f900000000p-2, -0x1.d8b9860000000p-2, -0x1.de36c00000000p-4, -0x1.1f85bc0000000p-2, 0x1.a4d7c20000000p-4, 0x1.ad52680000000p-2, 0x1.29da2c0000000p-2, 0x1.6ffd960000000p-2, 0x1.d435ec0000000p-4, 0x1.ccee2a0000000p-5, 0x1.ae944a0000000p-5, 0x1.9ee0520000000p-4, 0x1.5edce60000000p-4, -0x1.5cbcf40000000p-4, -0x1.4e196c0000000p-3, -0x1.a4b25e0000000p-1, 0x1.0ddc860000000p-3, -0x1.ac851a0000000p-2, -0x1.d6a9940000000p-2, -0x1.2201e80000000p-2, 0x1.e5e3e20000000p-3, -0x1.8e959e0000000p-2, -0x1.4fa7080000000p-6, -0x1.5ee9720000000p-1, -0x1.fd6f000000000p-3, -0x1.36df660000000p-9, 0x1.d7edc60000000p-2, 0x1.23cfd40000000p-1, 0x1.4d041c0000000p-1, 0x1.bf33a40000000p-2, -0x1.6f58de0000000p-3, 0x1.6a8afc0000000p-12, 0x1.1975320000000p-2, 0x1.111c6c0000000p-3, 0x1.064df40000000p-4, -0x1.c687c80000000p-1, -0x1.298bf00000000p+0, 0x1.df0d0c0000000p-3, 0x1.673cd20000000p-2, -0x1.0821a80000000p-1, -0x1.5975420000000p+0, -0x1.4ba9500000000p+0, -0x1.c9628e0000000p-1, -0x1.3e7eac0000000p+0, -0x1.5123a60000000p-2, -0x1.01576e0000000p-1, -0x1.fa86120000000p-2, -0x1.6629980000000p-1, -0x1.6e835c0000000p-1, -0x1.a3069e0000000p-4, -0x1.5420fe0000000p-4, 0x1.e9111c0000000p-5, -0x1.01f7540000000p-1, -0x1.33bc0c0000000p-1, -0x1.09070e0000000p+0, -0x1.36b3140000000p-2, -0x1.3e734e0000000p-9, 0x1.0da2b00000000p-5, -0x1.56d68c0000000p-4, 0x1.1be7a20000000p-3, -0x1.bdc7da0000000p-3, -0x1.4a082c0000000p-2, -0x1.a2d12e0000000p-4, -0x1.e71a320000000p-1, -0x1.cba7b20000000p-1, -0x1.9404180000000p-2, 0x1.442aca0000000p-3, -0x1.e9fbe60000000p-6, 0x1.2e82e20000000p-5, 0x1.71f4ae0000000p-3, -0x1.77e9880000000p-3, 0x1.e2efee0000000p-4, -0x1.5c563a0000000p-2, -0x1.2da34a0000000p-3, -0x1.767f0e0000000p-1, -0x1.13a6080000000p-2, -0x1.c7c20a0000000p-3, -0x1.b505820000000p-3, -0x1.4ae70e0000000p-6, -0x1.165f960000000p-4, 0x1.ae2c760000000p-4, 0x1.ea25a40000000p-6, 0x1.6e82fa0000000p-4, -0x1.d6005e0000000p-4, 0x1.8427000000000p-3, -0x1.1bc9800000000p-4, -0x1.bdceb60000000p-1, -0x1.c15eb80000000p-3, -0x1.a4ba680000000p-5, -0x1.2236440000000p-2, 0x1.6328fa0000000p-4, 0x1.3c4e140000000p-3, 0x1.326cbc0000000p-5, -0x1.0e127a0000000p-3, 0x1.4e89380000000p-3, -0x1.7a85ee0000000p-4, -0x1.6eb2ce0000000p-1, -0x1.4bbf0c0000000p-1, -0x1.b31ad20000000p-1, -0x1.6fa8c20000000p-2, 0x1.23808c0000000p-2, -0x1.45cca20000000p-3, -0x1.10a6400000000p-1, -0x1.86b6b40000000p-3, -0x1.c3151a0000000p-3, -0x1.38fc3e0000000p-5, -0x1.a064040000000p-4, 0x1.20a2420000000p-3, 0x1.07728e0000000p-2}
, {-0x1.27ed1c0000000p-1, -0x1.8eda900000000p-1, -0x1.f4aaf00000000p-2, -0x1.64be3c0000000p-2, -0x1.03fdac0000000p-2, -0x1.3a8f420000000p-2, -0x1.41ba1c0000000p-3, 0x1.a5ae880000000p-3, -0x1.7162700000000p-4, -0x1.8e54200000000p-3, 0x1.f763860000000p-5, -0x1.e5b61c0000000p-4, -0x1.9979c60000000p-3, -0x1.23613c0000000p-3, -0x1.c7f70c0000000p-3, 0x1.128d580000000p-4, 0x1.2797420000000p-4, 0x1.926bea0000000p-4, -0x1.1a9b100000000p-9, 0x1.7ac76e0000000p-6, -0x1.b7f6d20000000p-3, -0x1.54e19a0000000p-2, -0x1.5310380000000p+0, -0x1.76ab9c0000000p-4, 0x1.cc4efc0000000p-5, 0x1.05729c0000000p-3, 0x1.7f06660000000p-4, -0x1.50832e0000000p-1, -0x1.1685820000000p-2, -0x1.4506d40000000p-4, -0x1.66a90e0000000p-3, -0x1.9175e80000000p-2, -0x1.e76ad40000000p-3, -0x1.0855e40000000p-4, 0x1.84f3da0000000p-4, 0x1.e2d2d40000000p-2, -0x1.83943c0000000p-2, -0x1.2c1b200000000p-3, -0x1.f745ee0000000p-4, -0x1.3f5f520000000p-3, -0x1.9af2560000000p-2, -0x1.04c67e0000000p-2, 0x1.810fea0000000p-3, 0x1.324a280000000p-2, -0x1.1919620000000p-3, -0x1.0a9ed60000000p-2, 0x1.cfc37e0000000p-3, 0x1.1907c40000000p-2, 0x1.e0900a0000000p-4, 0x1.81ac000000000p-5, 0x1.a1473a0000000p-4, 0x1.8aaac00000000p-5, 0x1.0fadf40000000p-4, 0x1.c2cd720000000p-1, 0x1.5295ee0000000p-3, 0x1.4b666e0000000p-3, -0x1.e481c20000000p-1, -0x1.3189c00000000p+0, -0x1.c684c00000000p-1, -0x1.0bf36c0000000p-3, -0x1.fb1cda0000000p-4, 0x1.61f8cc0000000p-3, 0x1.a15a7e0000000p-4, 0x1.ecd45c0000000p-3, 0x1.c019720000000p-3, 0x1.645e6c0000000p-9, -0x1.20b59e0000000p-2, -0x1.15b5f20000000p-3, -0x1.0925180000000p-1, 0x1.f603300000000p-1, 0x1.52cdba0000000p-1, 0x1.a751d20000000p-2, 0x1.8025600000000p-2, 0x1.02a9ac0000000p-2, 0x1.2e5d160000000p-6, -0x1.6a78220000000p-2, -0x1.3fca860000000p-2, -0x1.6b89da0000000p-1, -0x1.2e1aba0000000p-2, -0x1.601c880000000p-4, -0x1.2796920000000p-3, -0x1.a0a5fa0000000p-2, 0x1.426a9e0000000p-3, 0x1.1b54b20000000p-3, -0x1.831f220000000p-5, 0x1.565d820000000p-4, 0x1.9195860000000p-3, 0x1.8631900000000p-4, 0x1.f069560000000p-4, -0x1.3df04e0000000p-3, 0x1.1eee240000000p-2, -0x1.7200ee0000000p-1, 0x1.67c8900000000p-2, 0x1.0c97160000000p+0, 0x1.10509e0000000p-1, -0x1.3ff6780000000p-2, 0x1.ba7c160000000p-6, -0x1.e1575c0000000p-2, 0x1.39c8b60000000p-4, 0x1.c3cb1e0000000p-5, 0x1.1dbe8c0000000p-2, -0x1.916d160000000p-3, -0x1.088a320000000p-1, -0x1.a5a2980000000p-1, -0x1.dec8900000000p-2, 0x1.78b9260000000p-6, -0x1.79fb120000000p-7, 0x1.aaef440000000p-3, 0x1.8253e80000000p-3, 0x1.f93d800000000p-6, -0x1.c3a2c80000000p-2, -0x1.3315880000000p-3, 0x1.3477060000000p-6, 0x1.c5c1e60000000p-5, -0x1.71f63c0000000p+0, -0x1.24c7a40000000p+0, -0x1.0b65400000000p+0, -0x1.19b2880000000p+0, -0x1.a81ab00000000p-1, -0x1.77c30a0000000p-1, -0x1.c9e4d00000000p-1, -0x1.cf5bcc0000000p-2, -0x1.6a3f260000000p-2, -0x1.d13eb20000000p-6, -0x1.ebd9a00000000p-4, 0x1.1630740000000p-2, -0x1.d9a1620000000p-2, -0x1.9980280000000p-2, -0x1.680ce00000000p-1, -0x1.0eab300000000p-3, -0x1.31193a0000000p-3, -0x1.9d2d900000000p-5, -0x1.7a8bb40000000p-3, 0x1.9635500000000p-3, 0x1.21fff80000000p-5, -0x1.2e6afe0000000p-3, -0x1.6f2ce40000000p-4, -0x1.a494c40000000p-3, -0x1.f1429c0000000p-1, -0x1.f64c260000000p-1, -0x1.e68c5c0000000p-1, -0x1.1e840c0000000p+0, -0x1.208f100000000p-2, -0x1.bb70c80000000p-3, -0x1.ec507e0000000p-2, 0x1.52386a0000000p-5, -0x1.466a140000000p-3, 0x1.e1ffa20000000p-3, 0x1.6745380000000p-4, 0x1.0cd5760000000p-3, -0x1.a65e020000000p-3, -0x1.ff0ca40000000p-2, -0x1.fdc86a0000000p-2, -0x1.7642bc0000000p-4, -0x1.6ae4c80000000p-6, -0x1.33bcd00000000p-2, -0x1.5886a40000000p-3, 0x1.bfb2e80000000p-4, 0x1.b00b4a0000000p-3, 0x1.bf2b940000000p-3, -0x1.6155da0000000p-3, -0x1.173d840000000p-1, -0x1.7d88da0000000p-1, -0x1.208daa0000000p+0, -0x1.7b84a60000000p-1, 0x1.efd60c0000000p-4, -0x1.ef51160000000p-2, -0x1.c54aa00000000p-1, -0x1.f440e60000000p-2, -0x1.db23fe0000000p-2, -0x1.2309c40000000p-2, 0x1.e8049a0000000p-3, 0x1.6dfc440000000p-3, 0x1.5894000000000p-2, -0x1.de87580000000p-2, 0x1.0c7c260000000p-3, 0x1.7ec0be0000000p-2, -0x1.5e77260000000p-3, -0x1.3968120000000p-2, 0x1.1fdb660000000p-4, -0x1.0ab78e0000000p-5, -0x1.a1a3c00000000p-5, -0x1.e949340000000p-5, 0x1.cb4d360000000p-3}
, {-0x1.686fc20000000p-3, 0x1.470fb00000000p-7, 0x1.05808c0000000p-2, 0x1.eb10820000000p-3, 0x1.8d498a0000000p-2, 0x1.008ca00000000p-2, 0x1.f859f00000000p-4, 0x1.64082c0000000p-3, -0x1.e9fcec0000000p-4, -0x1.26e5360000000p-3, 0x1.3f6e480000000p-6, 0x1.92fdb60000000p-3, 0x1.d08bec0000000p-6, -0x1.8054e40000000p-5, -0x1.0bfbd80000000p-1, -0x1.324a8c0000000p-1, -0x1.7b2c220000000p-1, -0x1.4f0b3e0000000p-1, 0x1.5abcb00000000p-3, 0x1.7a07820000000p-2, 0x1.fd355a0000000p-3, 0x1.a8c19c0000000p-2, 0x1.811bac0000000p-1, 0x1.a4ac420000000p-2, -0x1.5f51820000000p-3, -0x1.24a30c0000000p-1, -0x1.cdec7e0000000p-3, 0x1.0cbcdc0000000p-3, 0x1.37ea320000000p-2, 0x1.b740d20000000p-3, -0x1.2c28320000000p-2, 0x1.422cf60000000p-3, 0x1.22218c0000000p-2, 0x1.03eaa00000000p-7, -0x1.0d52100000000p-3, 0x1.a72be80000000p-4, -0x1.0b3b440000000p-2, 0x1.5ac2c40000000p-3, 0x1.7b9d7c0000000p-1, 0x1.4dfd960000000p-1, 0x1.b4c70c0000000p-2, 0x1.6692f60000000p-3, 0x1.3a0e8c0000000p-4, -0x1.4492de0000000p+0, -0x1.7ec4380000000p-2, -0x1.3651a40000000p-5, 0x1.241e700000000p-7, 0x1.928fb40000000p-8, -0x1.8ded8e0000000p-4, 0x1.b5c3340000000p-4, -0x1.b373840000000p-5, 0x1.690f280000000p-3, 0x1.2dbc6c0000000p-2, 0x1.81fbe40000000p-4, 0x1.84b0aa0000000p-2, -0x1.9b8f7e0000000p-4, -0x1.19556a0000000p-2, -0x1.52d5420000000p-3, 0x1.c6e02a0000000p-5, 0x1.d0b5a00000000p-3, 0x1.0340ee0000000p-3, -0x1.81ac0a0000000p-3, -0x1.2265780000000p-2, -0x1.9a03de0000000p-2, -0x1.3d10c00000000p-2, 0x1.c3c5420000000p-3, 0x1.f84d160000000p-3, 0x1.52a0920000000p-1, 0x1.96a7380000000p-2, 0x1.15705a0000000p-1, 0x1.f035720000000p-2, 0x1.ed96c40000000p-4, -0x1.91d8ba0000000p-3, 0x1.dc1cd60000000p-4, 0x1.760fe20000000p-3, 0x1.11ffba0000000p-2, 0x1.c43f080000000p-5, 0x1.511cf80000000p-7, -0x1.82042c0000000p-4, -0x1.6e67820000000p-3, -0x1.0399420000000p-3, -0x1.75c26c0000000p-2, -0x1.6c8ac80000000p-1, -0x1.b802ca0000000p-1, -0x1.29c16c0000000p-1, -0x1.7ba7b00000000p-4, 0x1.0683a20000000p-2, 0x1.7a61360000000p-9, 0x1.5f2d280000000p-5, 0x1.0f14080000000p+0, 0x1.1ad8f00000000p+0, 0x1.90ffb40000000p-1, -0x1.0e45100000000p-3, 0x1.62c0f40000000p-2, 0x1.b1c2280000000p-4, -0x1.4a77380000000p-5, 0x1.9027a20000000p-2, -0x1.04f2080000000p-2, 0x1.dcf4600000000p-4, -0x1.6db0ce0000000p-6, -0x1.12ed7c0000000p-4, -0x1.5d714e0000000p-5, -0x1.887d420000000p-8, -0x1.ac50860000000p-4, -0x1.344a480000000p-5, 0x1.fd90a40000000p-4, -0x1.7d34900000000p-4, -0x1.d2017a0000000p-1, -0x1.d6c3540000000p-1, -0x1.4758c60000000p-1, 0x1.0c65c60000000p+0, 0x1.88bcdc0000000p+0, 0x1.1fb67e0000000p-2, -0x1.70fc300000000p-2, 0x1.b5a7580000000p+0, -0x1.abc72e0000000p-1, -0x1.5ca7160000000p-1, -0x1.7e05e00000000p-3, -0x1.0c088c0000000p-2, -0x1.ff6fea0000000p-3, -0x1.dffdfa0000000p-5, -0x1.aac7de0000000p-2, 0x1.40debe0000000p-4, -0x1.eddb380000000p-6, 0x1.01bf740000000p-2, 0x1.7ad0260000000p-5, 0x1.a4906c0000000p-6, 0x1.86258a0000000p-3, -0x1.688d0a0000000p-2, -0x1.a5c4a20000000p-5, -0x1.6e5ac60000000p-3, -0x1.4ce5c00000000p-1, -0x1.3909f20000000p-2, -0x1.96ace40000000p-2, -0x1.b9c09a0000000p-4, 0x1.43a97a0000000p-4, 0x1.d2c0000000000p-3, 0x1.a9cd920000000p-2, -0x1.8a3a2c0000000p-1, -0x1.519b4c0000000p-3, -0x1.1c66320000000p-5, 0x1.301de60000000p-4, 0x1.187f660000000p-5, -0x1.2ae7e60000000p-3, -0x1.1eeba40000000p-3, -0x1.3acae80000000p-4, 0x1.bf7ab60000000p-3, -0x1.a68e4c0000000p-4, -0x1.0a1eec0000000p-3, 0x1.a347720000000p-5, -0x1.70d0540000000p-2, 0x1.cb27380000000p-5, 0x1.bb35880000000p-3, 0x1.5fa3660000000p-3, -0x1.13762a0000000p-6, -0x1.b1ef640000000p-4, -0x1.b22d4c0000000p-3, -0x1.3d6aac0000000p-3, -0x1.7968e60000000p-3, -0x1.ef3c020000000p-3, -0x1.cc18a20000000p-3, -0x1.05dc4e0000000p-1, -0x1.964c9c0000000p-3, -0x1.17f97e0000000p-3, -0x1.20ac3e0000000p-3, -0x1.a51b2a0000000p-2, -0x1.13f0340000000p-2, -0x1.9d752e0000000p-3, -0x1.f75a700000000p-3, 0x1.417f0a0000000p-8, 0x1.1cb4140000000p-2, -0x1.d5f34c0000000p-4, 0x1.ef45680000000p-4, -0x1.a401480000000p-4, -0x1.26c2f40000000p-3, -0x1.7762280000000p-2, -0x1.ce837a0000000p-3, -0x1.2e85040000000p-2, -0x1.475a740000000p-7, -0x1.27d07c0000000p-4, -0x1.500ca20000000p-4, -0x1.ebfcdc0000000p-2, -0x1.dcd4060000000p-2, -0x1.3a16d40000000p-2}
}
;

#undef INPUT_SAMPLES
#undef FC_UNITS